unsigned char __models_model_tflite[] = {
  0x20, 0x00, 0x00, 0x00, 0x54, 0x46, 0x4c, 0x33, 0x00, 0x00, 0x00, 0x00,
  0x00, 0x00, 0x12, 0x00, 0x1c, 0x00, 0x04, 0x00, 0x08, 0x00, 0x0c, 0x00,
  0x10, 0x00, 0x14, 0x00, 0x00, 0x00, 0x18, 0x00, 0x12, 0x00, 0x00, 0x00,
  0x03, 0x00, 0x00, 0x00, 0xfc, 0x09, 0x00, 0x00, 0x14, 0x03, 0x00, 0x00,
  0xfc, 0x02, 0x00, 0x00, 0x3c, 0x00, 0x00, 0x00, 0x04, 0x00, 0x00, 0x00,
  0x01, 0x00, 0x00, 0x00, 0x0c, 0x00, 0x00, 0x00, 0x08, 0x00, 0x0c, 0x00,
  0x04, 0x00, 0x08, 0x00, 0x08, 0x00, 0x00, 0x00, 0x08, 0x00, 0x00, 0x00,
  0x0b, 0x00, 0x00, 0x00, 0x13, 0x00, 0x00, 0x00, 0x6d, 0x69, 0x6e, 0x5f,
  0x72, 0x75, 0x6e, 0x74, 0x69, 0x6d, 0x65, 0x5f, 0x76, 0x65, 0x72, 0x73,
  0x69, 0x6f, 0x6e, 0x00, 0x0c, 0x00, 0x00, 0x00, 0xa8, 0x02, 0x00, 0x00,
  0x94, 0x02, 0x00, 0x00, 0x38, 0x02, 0x00, 0x00, 0xd4, 0x01, 0x00, 0x00,
  0xc0, 0x01, 0x00, 0x00, 0x9c, 0x01, 0x00, 0x00, 0x88, 0x00, 0x00, 0x00,
  0x64, 0x00, 0x00, 0x00, 0x58, 0x00, 0x00, 0x00, 0x44, 0x00, 0x00, 0x00,
  0x30, 0x00, 0x00, 0x00, 0x04, 0x00, 0x00, 0x00, 0xf6, 0xfd, 0xff, 0xff,
  0x04, 0x00, 0x00, 0x00, 0x10, 0x00, 0x00, 0x00, 0x31, 0x2e, 0x35, 0x2e,
  0x30, 0x00, 0x00, 0x00, 0x00, 0x00, 0x00, 0x00, 0x00, 0x00, 0x00, 0x00,
  0x00, 0x00, 0x00, 0x00, 0x00, 0x00, 0x00, 0x00, 0x00, 0x00, 0x00, 0x00,
  0x04, 0xfd, 0xff, 0xff, 0x00, 0x00, 0x00, 0x00, 0x00, 0x00, 0x00, 0x00,
  0x00, 0x00, 0x00, 0x00, 0x14, 0xfd, 0xff, 0xff, 0x00, 0x00, 0x00, 0x00,
  0x00, 0x00, 0x00, 0x00, 0x00, 0x00, 0x00, 0x00, 0x24, 0xfd, 0xff, 0xff,
  0x00, 0x00, 0x00, 0x00, 0x46, 0xfe, 0xff, 0xff, 0x04, 0x00, 0x00, 0x00,
  0x10, 0x00, 0x00, 0x00, 0xbb, 0x27, 0xf5, 0xf6, 0x04, 0xe3, 0x25, 0xe5,
  0x7f, 0x69, 0x18, 0xec, 0xdc, 0x32, 0xec, 0xe4, 0x00, 0x00, 0x00, 0x00,
  0x66, 0xfe, 0xff, 0xff, 0x04, 0x00, 0x00, 0x00, 0x00, 0x01, 0x00, 0x00,
  0x01, 0x17, 0x07, 0x15, 0xf2, 0x10, 0xef, 0xfd, 0xdd, 0xf7, 0xf5, 0x08,
  0x29, 0xbe, 0x29, 0xe5, 0xef, 0x05, 0xf7, 0xea, 0x0e, 0x14, 0x11, 0xf9,
  0xfc, 0x10, 0x0a, 0xeb, 0xee, 0x04, 0xe8, 0x00, 0x0a, 0x04, 0xf4, 0x10,
  0xf6, 0xf0, 0xf0, 0xe7, 0xef, 0x01, 0xff, 0x06, 0xf8, 0x00, 0x18, 0x00,
  0xe8, 0x06, 0x10, 0xfb, 0x0f, 0x17, 0xe8, 0xf1, 0x0d, 0x16, 0xfe, 0x07,
  0x00, 0xfd, 0xea, 0x14, 0x05, 0xf5, 0xf5, 0x0a, 0x06, 0xeb, 0x18, 0x11,
  0xea, 0x0e, 0xeb, 0x0a, 0xee, 0x1a, 0x0c, 0x0c, 0xf4, 0xe8, 0xee, 0x01,
  0xf9, 0xfe, 0x17, 0xf8, 0xf2, 0xf4, 0x02, 0x0b, 0x0d, 0x01, 0xe8, 0x05,
  0x10, 0x14, 0xf8, 0xf9, 0x16, 0x07, 0xee, 0xfa, 0xfa, 0x01, 0x0e, 0x08,
  0xfc, 0xfe, 0xfa, 0x06, 0x0a, 0x01, 0xea, 0x0c, 0xef, 0x0e, 0xeb, 0xf2,
  0x10, 0x14, 0x02, 0x04, 0xf3, 0xe6, 0xe9, 0xef, 0xf9, 0x17, 0xfe, 0xee,
  0xfe, 0x06, 0x0a, 0x0d, 0xe0, 0xf1, 0xe7, 0x06, 0x1d, 0xa3, 0x2a, 0xf9,
  0x0e, 0x18, 0xf9, 0xfd, 0xef, 0x08, 0x16, 0x09, 0xe9, 0x02, 0xd6, 0xfe,
  0xfd, 0x81, 0x1f, 0x18, 0x02, 0xf8, 0xec, 0xeb, 0x01, 0xed, 0xec, 0x14,
  0x21, 0xfa, 0x00, 0x08, 0x05, 0x1d, 0x0d, 0xf8, 0xea, 0xfd, 0x0c, 0x15,
  0x0b, 0x14, 0xf7, 0xf8, 0x12, 0x05, 0xf1, 0xf6, 0x00, 0xf2, 0x04, 0x11,
  0xf5, 0xf9, 0xf8, 0xf6, 0xee, 0xf4, 0xf5, 0x0f, 0xf1, 0xfe, 0x10, 0x11,
  0x0c, 0xf3, 0xe7, 0xfc, 0xef, 0x1b, 0xfb, 0x0b, 0xfc, 0xe7, 0x10, 0x12,
  0x06, 0xf8, 0x15, 0xf2, 0x05, 0x00, 0xea, 0xf7, 0x04, 0xef, 0xfd, 0x14,
  0x19, 0x0c, 0x12, 0x16, 0x0b, 0x0e, 0x0f, 0x0a, 0xfd, 0xeb, 0x05, 0x0c,
  0x09, 0x0b, 0x0b, 0x16, 0x0f, 0xf4, 0xf4, 0x18, 0x0e, 0x19, 0xff, 0xeb,
  0x1d, 0xea, 0x1e, 0xfa, 0x00, 0x00, 0x00, 0x00, 0x76, 0xff, 0xff, 0xff,
  0x04, 0x00, 0x00, 0x00, 0x10, 0x00, 0x00, 0x00, 0xcc, 0x7f, 0xee, 0xdc,
  0xc4, 0xfd, 0xc1, 0xd0, 0x65, 0x9e, 0x6b, 0x0c, 0x07, 0x30, 0x1a, 0x47,
  0x00, 0x00, 0x00, 0x00, 0x96, 0xff, 0xff, 0xff, 0x04, 0x00, 0x00, 0x00,
  0x04, 0x00, 0x00, 0x00, 0xee, 0xf0, 0xff, 0xff, 0xa6, 0xff, 0xff, 0xff,
  0x04, 0x00, 0x00, 0x00, 0x40, 0x00, 0x00, 0x00, 0x06, 0x12, 0x00, 0x00,
  0x00, 0x00, 0x00, 0x00, 0xd9, 0x01, 0x00, 0x00, 0x38, 0x01, 0x00, 0x00,
  0x2d, 0xff, 0xff, 0xff, 0x00, 0x00, 0x00, 0x00, 0x82, 0xfc, 0xff, 0xff,
  0xb8, 0xff, 0xff, 0xff, 0x9c, 0x06, 0x00, 0x00, 0xf6, 0x03, 0x00, 0x00,
  0x0f, 0xfa, 0xff, 0xff, 0x5e, 0x02, 0x00, 0x00, 0x83, 0xff, 0xff, 0xff,
  0x4b, 0xfa, 0xff, 0xff, 0x7f, 0x02, 0x00, 0x00, 0x69, 0x07, 0x00, 0x00,
  0x00, 0x00, 0x00, 0x00, 0x00, 0x00, 0x00, 0x00, 0x00, 0x00, 0x00, 0x00,
  0x00, 0x00, 0x06, 0x00, 0x08, 0x00, 0x04, 0x00, 0x06, 0x00, 0x00, 0x00,
  0x04, 0x00, 0x00, 0x00, 0x40, 0x00, 0x00, 0x00, 0x00, 0x00, 0x00, 0x00,
  0x86, 0x00, 0x00, 0x00, 0x00, 0x00, 0x00, 0x00, 0x00, 0x00, 0x00, 0x00,
  0x00, 0x00, 0x00, 0x00, 0x00, 0x00, 0x00, 0x00, 0x00, 0x00, 0x00, 0x00,
  0x00, 0x00, 0x00, 0x00, 0x5d, 0xf1, 0xff, 0xff, 0x00, 0x00, 0x00, 0x00,
  0x8c, 0xe5, 0xff, 0xff, 0xdd, 0xff, 0xff, 0xff, 0xca, 0x17, 0x00, 0x00,
  0xde, 0xee, 0xff, 0xff, 0xa5, 0x18, 0x00, 0x00, 0xa3, 0xff, 0xff, 0xff,
  0x00, 0x00, 0x00, 0x00, 0x00, 0x00, 0x00, 0x00, 0x00, 0x00, 0x00, 0x00,
  0x44, 0xff, 0xff, 0xff, 0x00, 0x00, 0x00, 0x00, 0x00, 0x00, 0x00, 0x00,
  0x00, 0x00, 0x00, 0x00, 0x54, 0xff, 0xff, 0xff, 0x00, 0x00, 0x00, 0x00,
  0x00, 0x00, 0x00, 0x00, 0x00, 0x00, 0x00, 0x00, 0x0f, 0x00, 0x00, 0x00,
  0x4d, 0x4c, 0x49, 0x52, 0x20, 0x43, 0x6f, 0x6e, 0x76, 0x65, 0x72, 0x74,
  0x65, 0x64, 0x2e, 0x00, 0x01, 0x00, 0x00, 0x00, 0x14, 0x00, 0x00, 0x00,
  0x00, 0x00, 0x0e, 0x00, 0x18, 0x00, 0x04, 0x00, 0x08, 0x00, 0x0c, 0x00,
  0x10, 0x00, 0x14, 0x00, 0x0e, 0x00, 0x00, 0x00, 0x58, 0x01, 0x00, 0x00,
  0x4c, 0x01, 0x00, 0x00, 0x40, 0x01, 0x00, 0x00, 0x14, 0x00, 0x00, 0x00,
  0x04, 0x00, 0x00, 0x00, 0x04, 0x00, 0x00, 0x00, 0x6d, 0x61, 0x69, 0x6e,
  0x00, 0x00, 0x00, 0x00, 0x05, 0x00, 0x00, 0x00, 0x04, 0x01, 0x00, 0x00,
  0xb8, 0x00, 0x00, 0x00, 0x70, 0x00, 0x00, 0x00, 0x28, 0x00, 0x00, 0x00,
  0x04, 0x00, 0x00, 0x00, 0x1a, 0xff, 0xff, 0xff, 0x02, 0x00, 0x00, 0x00,
  0x10, 0x00, 0x00, 0x00, 0x04, 0x00, 0x00, 0x00, 0x01, 0x00, 0x00, 0x00,
  0x0b, 0x00, 0x00, 0x00, 0x01, 0x00, 0x00, 0x00, 0x09, 0x00, 0x00, 0x00,
  0xca, 0xff, 0xff, 0xff, 0x00, 0x00, 0x00, 0x08, 0x1c, 0x00, 0x00, 0x00,
  0x10, 0x00, 0x00, 0x00, 0x08, 0x00, 0x00, 0x00, 0x04, 0x00, 0x04, 0x00,
  0x04, 0x00, 0x00, 0x00, 0x01, 0x00, 0x00, 0x00, 0x09, 0x00, 0x00, 0x00,
  0x03, 0x00, 0x00, 0x00, 0x08, 0x00, 0x00, 0x00, 0x06, 0x00, 0x00, 0x00,
  0x03, 0x00, 0x00, 0x00, 0x00, 0x00, 0x0e, 0x00, 0x14, 0x00, 0x00, 0x00,
  0x08, 0x00, 0x0c, 0x00, 0x07, 0x00, 0x10, 0x00, 0x0e, 0x00, 0x00, 0x00,
  0x00, 0x00, 0x00, 0x08, 0x1c, 0x00, 0x00, 0x00, 0x10, 0x00, 0x00, 0x00,
  0x04, 0x00, 0x00, 0x00, 0xba, 0xff, 0xff, 0xff, 0x00, 0x00, 0x00, 0x01,
  0x01, 0x00, 0x00, 0x00, 0x08, 0x00, 0x00, 0x00, 0x03, 0x00, 0x00, 0x00,
  0x07, 0x00, 0x00, 0x00, 0x05, 0x00, 0x00, 0x00, 0x02, 0x00, 0x00, 0x00,
  0x00, 0x00, 0x0e, 0x00, 0x16, 0x00, 0x00, 0x00, 0x08, 0x00, 0x0c, 0x00,
  0x07, 0x00, 0x10, 0x00, 0x0e, 0x00, 0x00, 0x00, 0x00, 0x00, 0x00, 0x08,
  0x24, 0x00, 0x00, 0x00, 0x18, 0x00, 0x00, 0x00, 0x0c, 0x00, 0x00, 0x00,
  0x00, 0x00, 0x06, 0x00, 0x08, 0x00, 0x07, 0x00, 0x06, 0x00, 0x00, 0x00,
  0x00, 0x00, 0x00, 0x01, 0x01, 0x00, 0x00, 0x00, 0x07, 0x00, 0x00, 0x00,
  0x03, 0x00, 0x00, 0x00, 0x00, 0x00, 0x00, 0x00, 0x04, 0x00, 0x00, 0x00,
  0x01, 0x00, 0x00, 0x00, 0x00, 0x00, 0x0a, 0x00, 0x10, 0x00, 0x04, 0x00,
  0x08, 0x00, 0x0c, 0x00, 0x0a, 0x00, 0x00, 0x00, 0x01, 0x00, 0x00, 0x00,
  0x10, 0x00, 0x00, 0x00, 0x04, 0x00, 0x00, 0x00, 0x01, 0x00, 0x00, 0x00,
  0x00, 0x00, 0x00, 0x00, 0x01, 0x00, 0x00, 0x00, 0x0a, 0x00, 0x00, 0x00,
  0x01, 0x00, 0x00, 0x00, 0x0b, 0x00, 0x00, 0x00, 0x01, 0x00, 0x00, 0x00,
  0x0a, 0x00, 0x00, 0x00, 0x0c, 0x00, 0x00, 0x00, 0xec, 0x04, 0x00, 0x00,
  0x60, 0x04, 0x00, 0x00, 0xf0, 0x03, 0x00, 0x00, 0x7c, 0x03, 0x00, 0x00,
  0x00, 0x03, 0x00, 0x00, 0x84, 0x02, 0x00, 0x00, 0x08, 0x02, 0x00, 0x00,
  0x74, 0x01, 0x00, 0x00, 0xe0, 0x00, 0x00, 0x00, 0x6c, 0x00, 0x00, 0x00,
  0x3c, 0x00, 0x00, 0x00, 0x04, 0x00, 0x00, 0x00, 0xd8, 0xff, 0xff, 0xff,
  0x18, 0x00, 0x00, 0x00, 0x04, 0x00, 0x00, 0x00, 0x08, 0x00, 0x00, 0x00,
  0x49, 0x64, 0x65, 0x6e, 0x74, 0x69, 0x74, 0x79, 0x00, 0x00, 0x00, 0x00,
  0x02, 0x00, 0x00, 0x00, 0x01, 0x00, 0x00, 0x00, 0x01, 0x00, 0x00, 0x00,
  0x0c, 0x00, 0x0c, 0x00, 0x04, 0x00, 0x00, 0x00, 0x00, 0x00, 0x08, 0x00,
  0x0c, 0x00, 0x00, 0x00, 0x1c, 0x00, 0x00, 0x00, 0x04, 0x00, 0x00, 0x00,
  0x0d, 0x00, 0x00, 0x00, 0x64, 0x65, 0x6e, 0x73, 0x65, 0x5f, 0x37, 0x5f,
  0x69, 0x6e, 0x70, 0x75, 0x74, 0x00, 0x00, 0x00, 0x02, 0x00, 0x00, 0x00,
  0x01, 0x00, 0x00, 0x00, 0x01, 0x00, 0x00, 0x00, 0xb2, 0xfb, 0xff, 0xff,
  0x00, 0x00, 0x00, 0x09, 0x5c, 0x00, 0x00, 0x00, 0x0a, 0x00, 0x00, 0x00,
  0x40, 0x00, 0x00, 0x00, 0x04, 0x00, 0x00, 0x00, 0xa4, 0xfb, 0xff, 0xff,
  0x2c, 0x00, 0x00, 0x00, 0x20, 0x00, 0x00, 0x00, 0x14, 0x00, 0x00, 0x00,
  0x04, 0x00, 0x00, 0x00, 0x01, 0x00, 0x00, 0x00, 0x00, 0x00, 0x00, 0x00,
  0x00, 0x00, 0x00, 0x00, 0x01, 0x00, 0x00, 0x00, 0x36, 0xcb, 0x03, 0x3c,
  0x01, 0x00, 0x00, 0x00, 0x12, 0xb2, 0x82, 0x3f, 0x01, 0x00, 0x00, 0x00,
  0xc4, 0xdc, 0x83, 0xbf, 0x0d, 0x00, 0x00, 0x00, 0x49, 0x64, 0x65, 0x6e,
  0x74, 0x69, 0x74, 0x79, 0x5f, 0x69, 0x6e, 0x74, 0x38, 0x00, 0x00, 0x00,
  0x02, 0x00, 0x00, 0x00, 0x01, 0x00, 0x00, 0x00, 0x01, 0x00, 0x00, 0x00,
  0x22, 0xfc, 0xff, 0xff, 0x00, 0x00, 0x00, 0x09, 0x7c, 0x00, 0x00, 0x00,
  0x09, 0x00, 0x00, 0x00, 0x44, 0x00, 0x00, 0x00, 0x04, 0x00, 0x00, 0x00,
  0x14, 0xfc, 0xff, 0xff, 0x30, 0x00, 0x00, 0x00, 0x24, 0x00, 0x00, 0x00,
  0x18, 0x00, 0x00, 0x00, 0x04, 0x00, 0x00, 0x00, 0x01, 0x00, 0x00, 0x00,
  0x80, 0xff, 0xff, 0xff, 0xff, 0xff, 0xff, 0xff, 0x00, 0x00, 0x00, 0x00,
  0x01, 0x00, 0x00, 0x00, 0x35, 0xfa, 0x12, 0x3c, 0x01, 0x00, 0x00, 0x00,
  0x3b, 0x67, 0x12, 0x40, 0x01, 0x00, 0x00, 0x00, 0x00, 0x00, 0x00, 0x00,
  0x28, 0x00, 0x00, 0x00, 0x73, 0x69, 0x6e, 0x65, 0x32, 0x2f, 0x64, 0x65,
  0x6e, 0x73, 0x65, 0x5f, 0x38, 0x2f, 0x52, 0x65, 0x6c, 0x75, 0x3b, 0x73,
  0x69, 0x6e, 0x65, 0x32, 0x2f, 0x64, 0x65, 0x6e, 0x73, 0x65, 0x5f, 0x38,
  0x2f, 0x42, 0x69, 0x61, 0x73, 0x41, 0x64, 0x64, 0x00, 0x00, 0x00, 0x00,
  0x02, 0x00, 0x00, 0x00, 0x01, 0x00, 0x00, 0x00, 0x10, 0x00, 0x00, 0x00,
  0xb2, 0xfc, 0xff, 0xff, 0x00, 0x00, 0x00, 0x09, 0x7c, 0x00, 0x00, 0x00,
  0x08, 0x00, 0x00, 0x00, 0x44, 0x00, 0x00, 0x00, 0x04, 0x00, 0x00, 0x00,
  0xa4, 0xfc, 0xff, 0xff, 0x30, 0x00, 0x00, 0x00, 0x24, 0x00, 0x00, 0x00,
  0x18, 0x00, 0x00, 0x00, 0x04, 0x00, 0x00, 0x00, 0x01, 0x00, 0x00, 0x00,
  0x80, 0xff, 0xff, 0xff, 0xff, 0xff, 0xff, 0xff, 0x00, 0x00, 0x00, 0x00,
  0x01, 0x00, 0x00, 0x00, 0xaf, 0xbc, 0x6e, 0x3c, 0x01, 0x00, 0x00, 0x00,
  0xf2, 0xcd, 0x6d, 0x40, 0x01, 0x00, 0x00, 0x00, 0x00, 0x00, 0x00, 0x00,
  0x28, 0x00, 0x00, 0x00, 0x73, 0x69, 0x6e, 0x65, 0x32, 0x2f, 0x64, 0x65,
  0x6e, 0x73, 0x65, 0x5f, 0x37, 0x2f, 0x52, 0x65, 0x6c, 0x75, 0x3b, 0x73,
  0x69, 0x6e, 0x65, 0x32, 0x2f, 0x64, 0x65, 0x6e, 0x73, 0x65, 0x5f, 0x37,
  0x2f, 0x42, 0x69, 0x61, 0x73, 0x41, 0x64, 0x64, 0x00, 0x00, 0x00, 0x00,
  0x02, 0x00, 0x00, 0x00, 0x01, 0x00, 0x00, 0x00, 0x10, 0x00, 0x00, 0x00,
  0x42, 0xfd, 0xff, 0xff, 0x00, 0x00, 0x00, 0x09, 0x64, 0x00, 0x00, 0x00,
  0x07, 0x00, 0x00, 0x00, 0x40, 0x00, 0x00, 0x00, 0x04, 0x00, 0x00, 0x00,
  0x34, 0xfd, 0xff, 0xff, 0x2c, 0x00, 0x00, 0x00, 0x20, 0x00, 0x00, 0x00,
  0x14, 0x00, 0x00, 0x00, 0x04, 0x00, 0x00, 0x00, 0x01, 0x00, 0x00, 0x00,
  0x00, 0x00, 0x00, 0x00, 0x00, 0x00, 0x00, 0x00, 0x01, 0x00, 0x00, 0x00,
  0x66, 0xa4, 0x5d, 0x3c, 0x01, 0x00, 0x00, 0x00, 0x1d, 0xe9, 0xdb, 0x3f,
  0x01, 0x00, 0x00, 0x00, 0xd8, 0x2c, 0x6e, 0xbf, 0x14, 0x00, 0x00, 0x00,
  0x73, 0x69, 0x6e, 0x65, 0x32, 0x2f, 0x64, 0x65, 0x6e, 0x73, 0x65, 0x5f,
  0x39, 0x2f, 0x4d, 0x61, 0x74, 0x4d, 0x75, 0x6c, 0x00, 0x00, 0x00, 0x00,
  0x02, 0x00, 0x00, 0x00, 0x01, 0x00, 0x00, 0x00, 0x10, 0x00, 0x00, 0x00,
  0xba, 0xfd, 0xff, 0xff, 0x00, 0x00, 0x00, 0x09, 0x64, 0x00, 0x00, 0x00,
  0x06, 0x00, 0x00, 0x00, 0x40, 0x00, 0x00, 0x00, 0x04, 0x00, 0x00, 0x00,
  0xac, 0xfd, 0xff, 0xff, 0x2c, 0x00, 0x00, 0x00, 0x20, 0x00, 0x00, 0x00,
  0x14, 0x00, 0x00, 0x00, 0x04, 0x00, 0x00, 0x00, 0x01, 0x00, 0x00, 0x00,
  0x00, 0x00, 0x00, 0x00, 0x00, 0x00, 0x00, 0x00, 0x01, 0x00, 0x00, 0x00,
  0x30, 0xc2, 0x89, 0x3c, 0x01, 0x00, 0x00, 0x00, 0xfc, 0x2b, 0x34, 0x3f,
  0x01, 0x00, 0x00, 0x00, 0xac, 0xae, 0x08, 0xc0, 0x14, 0x00, 0x00, 0x00,
  0x73, 0x69, 0x6e, 0x65, 0x32, 0x2f, 0x64, 0x65, 0x6e, 0x73, 0x65, 0x5f,
  0x38, 0x2f, 0x4d, 0x61, 0x74, 0x4d, 0x75, 0x6c, 0x00, 0x00, 0x00, 0x00,
  0x02, 0x00, 0x00, 0x00, 0x10, 0x00, 0x00, 0x00, 0x10, 0x00, 0x00, 0x00,
  0x32, 0xfe, 0xff, 0xff, 0x00, 0x00, 0x00, 0x09, 0x64, 0x00, 0x00, 0x00,
  0x05, 0x00, 0x00, 0x00, 0x40, 0x00, 0x00, 0x00, 0x04, 0x00, 0x00, 0x00,
  0x24, 0xfe, 0xff, 0xff, 0x2c, 0x00, 0x00, 0x00, 0x20, 0x00, 0x00, 0x00,
  0x14, 0x00, 0x00, 0x00, 0x04, 0x00, 0x00, 0x00, 0x01, 0x00, 0x00, 0x00,
  0x00, 0x00, 0x00, 0x00, 0x00, 0x00, 0x00, 0x00, 0x01, 0x00, 0x00, 0x00,
  0x30, 0xdc, 0x98, 0x3b, 0x01, 0x00, 0x00, 0x00, 0x78, 0xaa, 0x17, 0x3f,
  0x01, 0x00, 0x00, 0x00, 0x02, 0x07, 0xea, 0xbe, 0x14, 0x00, 0x00, 0x00,
  0x73, 0x69, 0x6e, 0x65, 0x32, 0x2f, 0x64, 0x65, 0x6e, 0x73, 0x65, 0x5f,
  0x37, 0x2f, 0x4d, 0x61, 0x74, 0x4d, 0x75, 0x6c, 0x00, 0x00, 0x00, 0x00,
  0x02, 0x00, 0x00, 0x00, 0x10, 0x00, 0x00, 0x00, 0x01, 0x00, 0x00, 0x00,
  0xaa, 0xfe, 0xff, 0xff, 0x00, 0x00, 0x00, 0x02, 0x60, 0x00, 0x00, 0x00,
  0x04, 0x00, 0x00, 0x00, 0x2c, 0x00, 0x00, 0x00, 0x04, 0x00, 0x00, 0x00,
  0x24, 0xff, 0xff, 0xff, 0x18, 0x00, 0x00, 0x00, 0x04, 0x00, 0x00, 0x00,
  0x01, 0x00, 0x00, 0x00, 0x00, 0x00, 0x00, 0x00, 0x00, 0x00, 0x00, 0x00,
  0x00, 0x00, 0x00, 0x00, 0x01, 0x00, 0x00, 0x00, 0xc5, 0x80, 0xfe, 0x38,
  0x24, 0x00, 0x00, 0x00, 0x73, 0x69, 0x6e, 0x65, 0x32, 0x2f, 0x64, 0x65,
  0x6e, 0x73, 0x65, 0x5f, 0x39, 0x2f, 0x42, 0x69, 0x61, 0x73, 0x41, 0x64,
  0x64, 0x2f, 0x52, 0x65, 0x61, 0x64, 0x56, 0x61, 0x72, 0x69, 0x61, 0x62,
  0x6c, 0x65, 0x4f, 0x70, 0x00, 0x00, 0x00, 0x00, 0x01, 0x00, 0x00, 0x00,
  0x01, 0x00, 0x00, 0x00, 0x1a, 0xff, 0xff, 0xff, 0x00, 0x00, 0x00, 0x02,
  0x5c, 0x00, 0x00, 0x00, 0x03, 0x00, 0x00, 0x00, 0x28, 0x00, 0x00, 0x00,
  0x04, 0x00, 0x00, 0x00, 0x94, 0xff, 0xff, 0xff, 0x14, 0x00, 0x00, 0x00,
  0x04, 0x00, 0x00, 0x00, 0x01, 0x00, 0x00, 0x00, 0x00, 0x00, 0x00, 0x00,
  0x00, 0x00, 0x00, 0x00, 0x01, 0x00, 0x00, 0x00, 0x11, 0x78, 0x80, 0x39,
  0x24, 0x00, 0x00, 0x00, 0x73, 0x69, 0x6e, 0x65, 0x32, 0x2f, 0x64, 0x65,
  0x6e, 0x73, 0x65, 0x5f, 0x38, 0x2f, 0x42, 0x69, 0x61, 0x73, 0x41, 0x64,
  0x64, 0x2f, 0x52, 0x65, 0x61, 0x64, 0x56, 0x61, 0x72, 0x69, 0x61, 0x62,
  0x6c, 0x65, 0x4f, 0x70, 0x00, 0x00, 0x00, 0x00, 0x01, 0x00, 0x00, 0x00,
  0x10, 0x00, 0x00, 0x00, 0x86, 0xff, 0xff, 0xff, 0x00, 0x00, 0x00, 0x02,
  0x68, 0x00, 0x00, 0x00, 0x02, 0x00, 0x00, 0x00, 0x34, 0x00, 0x00, 0x00,
  0x10, 0x00, 0x00, 0x00, 0x0c, 0x00, 0x0c, 0x00, 0x00, 0x00, 0x00, 0x00,
  0x04, 0x00, 0x08, 0x00, 0x0c, 0x00, 0x00, 0x00, 0x14, 0x00, 0x00, 0x00,
  0x04, 0x00, 0x00, 0x00, 0x01, 0x00, 0x00, 0x00, 0x00, 0x00, 0x00, 0x00,
  0x00, 0x00, 0x00, 0x00, 0x01, 0x00, 0x00, 0x00, 0x7f, 0x9f, 0xef, 0x38,
  0x24, 0x00, 0x00, 0x00, 0x73, 0x69, 0x6e, 0x65, 0x32, 0x2f, 0x64, 0x65,
  0x6e, 0x73, 0x65, 0x5f, 0x37, 0x2f, 0x42, 0x69, 0x61, 0x73, 0x41, 0x64,
  0x64, 0x2f, 0x52, 0x65, 0x61, 0x64, 0x56, 0x61, 0x72, 0x69, 0x61, 0x62,
  0x6c, 0x65, 0x4f, 0x70, 0x00, 0x00, 0x00, 0x00, 0x01, 0x00, 0x00, 0x00,
  0x10, 0x00, 0x00, 0x00, 0x00, 0x00, 0x0e, 0x00, 0x18, 0x00, 0x08, 0x00,
  0x07, 0x00, 0x0c, 0x00, 0x10, 0x00, 0x14, 0x00, 0x0e, 0x00, 0x00, 0x00,
  0x00, 0x00, 0x00, 0x09, 0x6c, 0x00, 0x00, 0x00, 0x01, 0x00, 0x00, 0x00,
  0x4c, 0x00, 0x00, 0x00, 0x10, 0x00, 0x00, 0x00, 0x0c, 0x00, 0x14, 0x00,
  0x04, 0x00, 0x08, 0x00, 0x0c, 0x00, 0x10, 0x00, 0x0c, 0x00, 0x00, 0x00,
  0x2c, 0x00, 0x00, 0x00, 0x20, 0x00, 0x00, 0x00, 0x14, 0x00, 0x00, 0x00,
  0x04, 0x00, 0x00, 0x00, 0x01, 0x00, 0x00, 0x00, 0x80, 0xff, 0xff, 0xff,
  0xff, 0xff, 0xff, 0xff, 0x01, 0x00, 0x00, 0x00, 0x04, 0xa7, 0xc8, 0x3c,
  0x01, 0x00, 0x00, 0x00, 0x5d, 0xde, 0xc7, 0x40, 0x01, 0x00, 0x00, 0x00,
  0x00, 0x00, 0x00, 0x00, 0x12, 0x00, 0x00, 0x00, 0x64, 0x65, 0x6e, 0x73,
  0x65, 0x5f, 0x37, 0x5f, 0x69, 0x6e, 0x70, 0x75, 0x74, 0x5f, 0x69, 0x6e,
  0x74, 0x38, 0x00, 0x00, 0x02, 0x00, 0x00, 0x00, 0x01, 0x00, 0x00, 0x00,
  0x01, 0x00, 0x00, 0x00, 0x03, 0x00, 0x00, 0x00, 0x3c, 0x00, 0x00, 0x00,
  0x28, 0x00, 0x00, 0x00, 0x10, 0x00, 0x00, 0x00, 0x00, 0x00, 0x0a, 0x00,
  0x0e, 0x00, 0x07, 0x00, 0x00, 0x00, 0x08, 0x00, 0x0a, 0x00, 0x00, 0x00,
  0x00, 0x00, 0x00, 0x06, 0x02, 0x00, 0x00, 0x00, 0x00, 0x00, 0x06, 0x00,
  0x06, 0x00, 0x05, 0x00, 0x06, 0x00, 0x00, 0x00, 0x00, 0x72, 0x0a, 0x00,
  0x0c, 0x00, 0x07, 0x00, 0x00, 0x00, 0x08, 0x00, 0x0a, 0x00, 0x00, 0x00,
  0x00, 0x00, 0x00, 0x09, 0x04, 0x00, 0x00, 0x00
};
unsigned int __models_model_tflite_len = 2672;
